; Combined Kernel Memory Initialization COE with random data
memory_initialization_radix=16;
memory_initialization_vector=
4BA396738F572AB1,
0ACB8BE8062130EB,
B65C479D55EA2EBF,
25DCC81411127C2D,
7AB16E86582BB497,
C06F35580DF30AEB,
0CD1AFAC1CEB968E,
6D878B2412444BC7,
F31F641DB04A6165,
4D038F7BC0F532F8,
81FC10A57A9E375F,
DE90AB3A22459C68,
760C47FFB12642BA,
60B551A567B4F881,
EC549A98AEF553E7,
EAF579DD7DC0973B,
5A7CDC84A33AA098,
91334BF608F08949,
117B6E92D12A87E0,
36594952E7822184,
2FD0B6086BDFC0F6,
BE2B9CEFA7B53431,
A58F9697A0CA4F6F,
55F31231FD0F231F,
A5E1F2DCC672D9F4,
534F31BB3F4A1419,
E5DEFD6BCB507FA7,
D95F7113FD4E7525,
634B2063FAF0E5AF,
59D9AEA95EE7EC22,
774F7385FA21B162,
3E1A3C9064E52739,
353294DE621CEE8B,
101C615E5EC85678,
8B363EE53834CEB0,
966A8C2EF3C457C8,
F709DEDFCE0F441F,
5D5030DA56DCABE5,
C61D9BB8CF676C09,
F061A23658353A8E,
48D87D7FAD304843,
F3022041570B5285,
CE3372C02FC964C0,
C3F6B3A253EB9137,
81920E06D362C2A3,
E8DC77F992023CD5,
0B7C33DC53364B4C,
947C324F24399092,
591C2E270956FD82,
1596C5C550733316,
264CF1714A560210,
A5F729026293BBC7,
11825F511063A5F9,
AE5DCC3E497B7E11,
42935ACE18F145F9,
AD7C8094ECAC3001,
B726EF58FBACFD14,
0A6CB92852647D1A,
02CCA046952EA91D,
5F3B0BF0E8B2EB24,
6E938F602D078DF1,
B8592CDB0302FE4B,
14512B8E704CF1EE,
8AFD3AB1D3638063,
1A4BF58A605ECB0A,
BCF1F40700D0ABE4,
9BC59F52A8A6F719,
DC33638777E8EF79,
939862A1F22EC66E,
669BF6E798C902F7,
7D5527215E68630A,
8500C7766E301CE8,
3C8BF8D7BDF12789,
D194FA730C0487D5,
E25F39D70995695C,
604003B170ED5ACE,
4EA56FF9BA7EA233,
3965FB38A9B2782E,
6949F85FB8D142A2,
88CFC57974A70045,
46CAD0E574EFC84A,
0AADE6285D13D8A9,
E14B65D93C830460,
069B415A021EB3FD,
9A20AFD78290EC21,
6F8C8D6D417F1A9C,
33F72439134EB70D,
EA85DF596EA6A9AD,
33D4189BA2F08716,
9B8F38007636DDEE,
60D7F60904348E29,
633E42CC4410D7E3,
B616C2D0B557D74F,
C2C321E961FB3962,
BFCEE9B8008A9714,
21E618B61D8F0247,
481BD4BF4C34F033,
C8308A5A03A2328E,
82E4B2C1BDFB5B19,
5237516FE100B736,
A0D0C3F7BAE7DD0B,
69BF8C1A800FE930,
A05A36371D8EB4A9,
11EE57107F45EF49,
D4E8AF193071E3ED,
7AB9DB2D77F49194,
32357E29A782CC9B,
2FB154B337D3E601,
55DBB5254B2A3113,
A0C5CC3B1CBEAD72,
194300177CA71218,
D1BA289437BBD400,
C1F970FE616D7A32,
7D64E8E611ED0C3F,
E8FE190A1D95AE5B,
6F3B6EE2F8EBAD20,
1E44D275677A3971,
26D62C8654471F0E,
5DCE51BDEE764146,
BBF28D4D49018373,
446F48F7B29F2E0C,
283EF0F36500B38D,
F762EC1AFCAB25B8,
BD55CDA363105200,
E499E73FB6B45E0B,
1FFA8C7462CD6A5C,
D2D4A68F3BAE3EB5,
8A1852411B19DDE7,
8486D8A78BE3ABB3,
B64C837704FD2626,
EEC1274D66B8E986,
0ADFF97EAE256B5F,
F36CAF5613E1C887,
0FA6B160CEDE2E47,
74D0ADBA0198592A,
3DD129702DFD3050,
31BA6A0BE43C1FA7,
F9EBE14674915501,
0C718A971291EDE5,
894D22CC7A06477B,
51EDA92B3D7AC7B7,
6D0AA12D12FE4E8F,
EA97ABE5901AD6FD,
47B40A723FAA7FBB,
DFB83C49298E9149,
1BC0223FB7B31F46,
66D1AB052743EDE8,
0D6F3997F2A16B5A,
684EB5D8E879CE00,
861F1D5C241FFC35,
A9FDE25A4C5C9038,
ABD91F397AAA69FB,
03F1562C536AB451,
B1C6A6F9664FA636,
12C1C58633FD8443,
060BC1D00CBE8C73,
20D313C02E7B9A2A,
C82CC5341C87C165,
DEEDCCA6DF98AB05,
257569575E75D498,
0988EDBD749D7E20,
8C8156F6D2A72D46,
5E330935C18A1B2D,
3B9D2D529AD5C33B,
0EE7C38C951321C8,
F3B5B707EF251208,
9B26EE0C6A5CB0AF,
3A16E0452421D9DD,
1436B1C26F61DC0B,
E92E0FD9449EED56,
736EDD1A41A2AE7A,
395812B7BDA19259,
25DC36B1CCB11FA5,
5490B1C5CB3BB8B3,
A2DF257DCFEE34F6,
FEDA5D23DA8D10DE,
612C5382A74E6FD3,
28D9C298F113B970,
2243E23D23401935,
DA4ED33BAB9FB59D,
D8E982A6E1CF4FD7,
25B99894D5854D5F,
F43166A3042B52DF,
275370407C5416E6,
123A72A963360D91,
B3DC5410A21477E5,
8094743FAEAC1573,
C52914C240AA87C4,
7CE80715B8A7614A,
723B0370D0B034D7,
F1063F4222A921C6,
F38204986865725E,
6B1CD57BA99B8B0C,
025275E39C040A49,
36B49F36AFEF1467,
0162563A54C97539,
CE4A1F6D765F99C4,
FBF99FADE08699D0,
EEE2A7B2043BD5FF,
2E4C3CA9F0A34E1A,
D0381431B97D18FA,
6371199223609F45,
B5483EE7FC035615,
1138E7850AEC0911,
E9F0903B4AC32FDE,
FE87D6DE910F9280,
A32FFB793564A053,
044EB2B4104CD404,
3AC04B1361C5A1AC,
DFB27E6DFCEAE814,
A4F42CB25B3B4537,
142C17FE3687B238,
F8448030F210A4A5,
FCF409BAE0C01BA7,
FFC50CB2E9563566,
ED5C51FF3F7E9436,
2C17B3A7A047FE96,
8E40E248BF981BE4,
77435586FECB93A3,
145CDB1D8DDF8462,
53EB5A76E43E0660,
801D0E84A2645009,
D5D3410D9B663CE1,
05600D6CB536FFFD,
13A42DE3B9D812EA,
77BB24569A252CB9,
74EFCCCD740C5A61,
C6E035D20F51ADF4,
AB9C72D42EE3209A,
043C5E52F908FF49,
B48F9528C4F3302C,
9934EF591D1173D9,
F07918DD874D3833,
966F7DD452792B35,
16A6C4B038239BFA,
63AD4D573914A6B0,
7689883CB1EDD4B0,
42795732C121F1B6,
5B4FEFF4DF3B9DDE,
EC7FF123E326B76C,
A53258316BBB4C1D,
42A6B4B0CD5B793E,
72D1A6CB29D7AE10,
049BCBC7C5BA8333,
B0E4BB102C2145BC,
5FBBB26781E98B60,
30323744A00B6FEB,
8D59CCB82C98631D,
8CC8EFF1971D5A5D,
D7B68B965ACFE21C,
5EC30C85D52BD425,
CCA4AEA1D5164B09,
C7736E6C239F8428,
22CB16CE86915991,
53A9180DF1203A46,
8DF8BA13DCAC08DC,
68A21535ABB2C573,
ABDC5DB95F11DD85,
BB27D367AA4D28BD,
BFFB9EC93DDDF2B5,
E501A02748CC116C,
8AD0FBEB6E0D1A51,
2304737FD0BB8CCD,
7E67A3E7C02ADA20,
8280CE73432EDBFF,
EFFC24A739A79C75,
39D4ABFCA1013454,
D8726895562F9B89,
4F339AFB821AED43,
A44B8EC059AE0B1F,
8ABF49EC4AA81200,
5CB1AC808FFA5F5B,
D869D1716D0D8F53,
4CA75682F8CBA8F7,
9A63E70CFF57F118,
2E25AA4232879BD9,
D9EC76092ACE368F,
0FA9B3CD7AE72FB9,
D993926BF0532671,
A0664EDA48AEA820,
FF8CCF00FAB1EEA1,
CFF3A41F1A826B0A,
B92664746DF64087,
6DA6CE82B6E5F9A0,
1C922A63FAE1929A,
6221189DEC3B8211,
DF58A393C3CC0B1F,
869E29D760DF87EE,
C6C0213562411E1F,
5738D530A23BEA35,
B787A382B1B445CB,
61220DF813C875C2,
3D55826F2728EFB0,
F38BF095E8654A1A,
3DE283A7F77B4585,
48A738CF5FA89228,
0735C26A96107E07,
236B5B13BB2EE48B,
FE8D995743A45E4C,
321874980F462984,
6158699D1727FC94,
4213DD277989DD9E,
CA2BE36B72041CF5,
992865333430FDFF,
ACD93E763D9AD3D7,
31A997DB02B84097,
329D959FFEFE97EC,
7438A6837ED033FA,
ABC8D012FF10D356,
E07256AE6B2D0669,
10363DCB67116CC6,
F91B3705B7703898,
A97C6D5558F74CBA,
B223568F17C7A2E6,
BF63BC31404C05A9,
CD938E7F58F70F02,
2BFAC05F5140B770,
602380BC4ED7021F,
7672D9749B11AB86,
78193D3E7D62DA0C,
0780949C954E6E0C,
2B34DBEC60314976,
5953C20F7C4A765C,
B9C1837924A52B67,
33649AF67C72FFE4,
603C2883415CC666,
3CCD8D0898F05CD2,
CBB3B93D98093C7C,
3CAE7971A9028D87,
8D9511FE8D2392BD,
BB45DAA88C9ECAAA,
7511A95C4F4D4169,
673245373823B0E9,
11DE7DF6176FAE6A,
ADFB1D89B5B3C11A,
FAED48B71375D8B8,
C271BF09C8BF17CD,
0BA9B14666D80A7F,
AE5D191C5F698C97,
16859EC30A1A1CD5,
19FC11520CEC42D5,
2DA19F3F6843D7D5,
55784B5590E4DEA1,
29CC7165B5F42E2B,
891506BD1FC097B2,
1B4A722CDFA16D59,
7802AD3ECEF7C423,
CB1EACB28C5297C8,
4014F359EA98BA38,
D06FC271247C2EE4,
CFCEB1C55EF07AFD,
8E7D0C816A229BB3,
0CF58BB227B66267,
5301B92AF8CB2F47,
71B810E93FB28F37,
C382D378DDA0A71E,
41249B7E8B454256,
5D97E318B109648D,
25EA0BAE4C02FC68,
147F68DD10162B6D,
C3FE5E88E029D23B,
CF009011BA8D5C54,
F7E1B56FF73360B7,
810D9CD5D99835E2,
89FF0E9DE58C638E,
6941B3745D0DE416,
2F1AEBAF067F36D3,
A6AB139B13371F94,
4DE4588F4BAE7B04,
935D4DAA20888056,
9CF0C5F99456B27B,
17CD3DCC3E112E1C,
0811550A2C60D89D,
43FD381ED269C0C2,
76E71FBF9FC8D811,
823194A1DAE56261,
5DCB09F9FB0A2DB9,
DB540A30B8EEC651,
209436F16720630A,
A412846B861D945A,
E2FDE0D654CE7710,
F30AEF4F5895CF4C,
84BF66E9A39E20EA,
9977BFCDBAB6F7E4,
6872C49A7067D1E0,
10C149FCDC933B4A,
211FF5F12C51E996,
596C628919A50652,
F88690F853B8AA1B,
97565F6BD7BF16D4,
57A82615626988AE,
A780A57DD3A9F2A1,
722BCD7E5213A5E0,
B3E5FC1DAE68BFD8,
3F61674FFBD32012,
5732FC7DF984E1B5,
5CB856969E415CC2,
1593852930AE664E,
54C9F42F3B4553BD,
0279D16E89F079DC,
BEBB3DCFA4647BA2,
FCE7E26DEB2C7043,
8E629B903B14E45E,
22E19893726DD1A4,
A42F58FCDA2BBA03,
C388D0833DDFE62B,
0323BB59EC5AE5C9,
29144E0113060458,
9EB8A2DF5A73755F,
4A2CCAFB1347B2D5,
585E132522FC4B6D,
211BD3BA1B075A30,
FDAF9D67DFBFB43A,
17AF009A75E54654,
DA2F293BD870B5CE,
DB2A9D06E02CA4DD,
EA67615709BA6317,
25200ECD8624C0F1,
ACCEC3B0467D41C4,
EECFD64C9A3E6751,
3130406C888C5FF2,
A5D52F3F16BD99EE,
DA3BBF5B7BB056EF,
53AFE89DD051685B,
2585890722EAB13C,
05C517A04763FBCD,
26C1F6E3E6960275,
0487D845FA27B718,
9B9C4A5E4D40934B,
3785876C672CDA89,
F2B45C17DBF4EEBB,
D6BE3178AFC17B95,
617E4C64D179F009,
3CE5EDAF29896924,
189A433E02F98DA3,
F4EED16FA0D335EE,
FD2D68FBF9392159,
A368C58D2A79579B,
BFFA7C1F36F50B46,
1B641D1B2141117F,
2663E42A104D9B6B,
416EC788AE111B6E,
6FC3EAA7C1E1D51C,
F79EDADCB960B167,
3A03FB8B186D2FAD,
3A6318966C42F60C,
44559BBAD20B11BE,
E5023B2BA9A814A0,
FE3E6EB8DF38DE02,
34D5AC3722AFDC39,
343D4EBBE40B3292,
DD46D02875F5FE17,
05F336377485A502,
8535051E26FBF62B,
DF85230507178E48,
9D560D91C5833871,
094A6598F558FA07,
3B42B5C71FDAAA0E,
720A4403CEEE1712,
0F21DE90E2D13565,
E3A13A2D2BE7BEE2,
3CCFA7FAE160F9C9,
5532A8166E5EE0D0,
821AC80BDA7DDE9B,
73860B48921A39D8,
83C0776DE99BA575,
ADACFDF9DB7FC602,
C81217054CF84A7D,
0A5260C0B4F9040A,
0154E32A216628D7,
FB1AF6CBFBEAF84A,
779AF784BDEABECB,
7E393098BFE6DA4B,
A237A6DB88CD55D3,
0FAEE25B84D61917,
D6941ED1E9EB4531,
A0B73A4075375880,
4B841110038D0100,
87082FBDB660A111,
B104796DF4C0D374,
21DE5156F3C0973E,
DC06D02E175794E4,
D56E0FF7F55C9348,
D0BBE00D40D36F79,
9133FDAA54FA4CD1,
3D0EBE00AB8D58EC,
83ADAF844C1B6724,
F16835F01ABACF0C,
02C1DBF293D4861E,
381C9987F8819293,
BA5880889271C601,
A86E820B0EF3258D,
C91FE34C43F5D167,
3C6E9192350DC118,
4AD993E6C201D9B7,
BE887801E79BE6E8,
2D3170FC2DFC8B23,
3007EA9492EA9899,
FD80D430FC64CF12,
0AC83F4177FA77BF,
6C9907A073A711C1,
D8709016588E908E,
DD5144C59F423D01,
D7442DD05286BB6A,
C236652BC129096B,
D0CCAAD0C46CFAFD,
8F442756FD3DA336,
5D00FF4F01133658,
3843DD7C1AA36580,
94C0A85A9EBA6A76,
D623EA74F92B3177,
D6452FA6C4663300,
C3DAB09149171BCE,
A5E2AA09F417E89B,
B1B7DEF9FEADBC19,
6EB63601932BD8BB,
2F2A0D54917E2DFD,
7DFB85F2AC453245,
F69C99306EEB3A5D,
7DB7481C50F13107,
7415EAC292AC2062,
5E5281EBDDE0C2F5,
0B15FA04523407B2,
9ACE01319917EA0F,
7B95C35642D9B79D,
655D2492AA9F3E91,
41D05EED31154728,
A515955D82BCEDC3,
F7A8BBBD54F6FE5C,
51F652056306A7E1,
797649EF5E19FDE3,
97B113C0AA74429D,
ADB5A7B22D07B0CD,
D6B149618A3C8DB8,
7535111D5C55DD49,
97FC83FBB26221C8,
A7D229EAC4343994,
E5BCFBD854CC1999,
5FE122FD22371D90,
CE2DD54A8762F8F5,
0B545E48E341C75A,
672288123D9E8CED,
6099646A08219274,
88F7DBC237BF73A1,
E897BD55B27F1BCD,
4D2BB42DEADD76CE,
1B93F9D1A216AD3B,
0B55636D1389F4E3,
939171086A14259B,
219D133124FB2FBC,
D7F6B32384FE3695,
8BD493B792E021F1,
CF7697C66479DA48,
971751CF0E1CBB40,
31E685B4B3EBF4FE,
D2D65B8B3026F3A3,
C1FA3E4C8789F361,
21D0DA7627C37C4F,
6440ECD17E077267,
F6E3C3C9B21B61B6,
64810134DD6BCB54,
7ADBAB440D2F62DD,
612037B59C5743B1,
14980C58E195B7A3,
69B2685C1ABD538A,
4D54A9F1D4AC406C,
825548720BDB7F47,
8686496A836DE437,
7329C0BB0943747A,
4AA88825927EB135,
4BE1E4287D1AEFDB,
16D55573DC4A395E,
D63C197EADF9C68C,
2EEFAE5898B13752,
E318518B9D4C75C9,
43E1166C14136E72,
8203048AA9BB21D4,
79025D5DCEE28099,
BEF9A2653DFBDF1A,
4F7601EBFD4B47CB,
3637D23D2BCA753B,
FA4AEA3AFEE3BDD0,
392019D47DC7B844,
4A401A28D71F626E,
F799A33C364E4EEB,
D9DE35E373311CBB,
7B22FE94818D8ABF,
C8361931056D0F28,
518766E3D29B3CE6,
AE1A0F7065A61687,
EA2846ACFB100A27,
668E8925B0D0D92D,
5363A4C97B9E7029,
C44A1EE8C4AA227E,
08095D7F68CA4B4D,
9746555FC605E49B,
1C31C10E7AFC4370,
ACB0C37C5D29B36A,
B064C5BA22A6AA2D,
46C5325D8A585EA4,
4C73372318735538,
216DF7E32B268BD5,
E3EE359997F0014F,
9699A88684A60538,
7189A29251943066,
8019BC38CA44417A,
9E1E0CF4592194EC,
94EC74440ACE30C9,
1E2978ED2E1222C7,
70826727281A7148,
F94177507FF55F7E,
42506971C9CB3821,
1EA4245F06CB578E,
43A800F832844A0A,
00C2E224671CB5F1,
3E86A221117F2AE0,
3A49784CCDAA4F12,
5437998C40095CD2,
2B4FC692C4C13143,
C9FBFCCEE8446D3D,
26FF9972F735A973,
177B9CF78A48040D,
C59CF25402A3BEA7,
87A38256079778EE,
F478894C9A524F24,
894D4D85549F93D3,
112CE5C34B74D647,
16B24AC7AFDD12CB,
94B8390AB5D0B2F0,
4B03580A0D38CFB8,
86D6DA02CB936E0E,
B71489046AF35DAC,
1BB5D7EB1E71B4B5,
CA5A5378639A9A0E,
4FFB66D415502C7E,
B9817123041FF4F5,
78959537C6D6ABA3,
645D6F82C876F990,
944B74D2778F2D8D,
D55D7C19C19D4943,
F6A8757C09536360,
83BD2B41BFBB0E7B,
D0C40ECCEC267B22,
ED1DC35BE65AA1E2,
CF4DC24B7E86AFE7,
18BE835127E44355,
B53A8042C53AEE63,
F76DC8BF994135D2,
D2B1B511F302B21A,
6D247A7F57AED670,
9E1F10C4820B6C50,
9C286B60FC0BBDCD,
0AD06C3B250E5E90,
48A261A72E1FC7E4,
62B61A455F3D91DE,
23361559DD93DEB5,
65C6136E0EB804D7,
ADC9826F94B7DB2D,
2D69284DBB7BBDB1,
3C903A1C2413DC19,
5D447D2489A4F9F2,
9AF18A0BDF056085,
8A89FD34D90CFA7D,
BAC76C5E9BE4EFA0,
D210C43754C75668,
60648FE2D40E2A34,
AAA1C7D41A5E7046,
11A7B8A727C5BD7E,
584E8957B10B8DD4,
69A53217D4274800,
F6D5D2F7DBBA0CB6,
1535B1F3A792E8CE,
AE28C201FDE7150A,
5C3C397C6767E200,
6D45CF4C1C36DE92,
DF35B21620024639,
C2A9E6CFDFB263A9,
D3947E2FDB1BA22A,
B4A1A1839500CA4D,
7168D995139F0F1B,
A2996039A657CC40,
411EA11352B860D2,
C8DD861817D76CEF,
63A415BFA286D6B8,
0CDD361E38B012FB,
914FEE90F301E036,
EDE7B46B861158BF,
3782FF4E185185E8,
8D9E24A48D1FC58F,
5D491109EE683A3C,
3BE9327582762EFD,
DE5CFE228DF04F16,
A82BC667BE32A36A,
FD9E65E897621F68,
9C12B9882516D1DF,
38621391E8F09315,
8D0A3E1564459507,
782E8CB2C4943B32,
C52048AB0BD90F77,
83C91D5D620C15FE,
FEF919D9EA784CA7,
0D151B56E2E5D613,
AD8D22214B362470,
76B0A8FDD54287E1,
01137AB5812F1CDE,
F513303066755869,
94672CA713A40573,
82BC98F93CDACD1D,
CED1EADCBBEEE813,
8E4589E86EA14F09,
966C11229B707510,
9C7F754F118878CA,
38E4774F1F3E8A55,
7030EBECD409AD44,
0BE0DDF251E86C41,
D6F00242E1652734,
FBF6BB42D00CDC5A,
FD6E61F7DDE22761,
D16343BFF701CFF1,
FE7F89538D828C7C,
E65304A501E1C0BA,
82005CAA9753D1DA,
55B80951BB55CAE2,
EDA7EF404C88F8DB,
E8AD21E78D3FBA49,
44AF727E5C8C4577,
18C53B71C705F1EF,
6ED22E37D8AE02DF,
E6513B97348DE619,
64D0F9A15C37F80F,
1F6CCB2DF2FC3EE0,
9826999B5087339F,
EB2893861A52318C,
5FA78796B9CEA62F,
12BC689E48FAC610,
449A4723D0CC9BE8,
511E684F1C371D8D,
D9A73631F2F2D563,
E195EB503CE9E548,
3EA0AFFF492A1D67,
273B01D3A943248D,
9651C7B3A2E4769D,
12D159309F19F276,
EF42B0D17DB1420D,
8C6E8428B2ADD1C1,
55A5D0C776236D82,
A59284A82264BF13,
0A9BC1C730920EE0,
0EB7ECD42ED66C0E,
2B57DA37F3C5B590,
D61ACE15A74F0638,
828F83717902C0FD;